[PAD]
[UNK]
[CLS]
[SEP]
[MASK]
0
1
2
3
4
5
6
7
8
9
_
a
b
c
d
e
f
g
h
i
j
k
l
m
n
o
p
q
r
s
t
u
v
w
x
y
z
ß
##r
##a
##s
##e
##n
##t
##i
##o
##m
##c
##h
##d
##b
##u
##k
##p
##l
##ß
##f
##g
##z
##w
##y
##v
##q
##j
##x
##2
##4
##3
##5
##8
##1
##0
##6
##9
##7
##in
##en
ein
##er
##ch
eine
##an
##ei
##au
##nd
##it
einem
in
##el
au
##ann
mann
mit
auf
und
##ar
##te
##un
##ie
sch
##sch
##st
##hr
##on
##rau
einer
##em
##al
##ge
##ra
##ter
ge
##ten
##or
frau
##ein
##as
##ck
sp
der
st
##gen
##and
##ich
##iel
die
##ahr
zw
zwei
an
##ad
kl
##ur
gr
##es
einen
##ach
##ht
jun
##gt
##ben
zu
bl
##und
##ind
im
ste
spiel
##et
##itz
##ers
##chen
##ber
##hen
vor
##am
sitz
##ier
schw
##ft
ro
##rei
##at
##all
##ßen
klein
wei
von
sich
junge
##schen
##ung
dem
##ll
##adchen
madchen
##pp
##eid
hund
##eu
##end
fahr
kind
##men
##arz
##ße
##erson
schwarz
person
##ger
##ut
##ot
##ass
manner
##alt
steht
stra
blau
##bei
ho
##ppe
##ir
##nen
den
sein
##sen
sitzt
##ri
hin
##isch
##fen
##nt
men
##uppe
uber
##emd
wahr
straße
##de
be
wahrend
bei
spr
aus
##ne
##ah
tra
menschen
##il
##ball
gruppe
halt
ihr
hemd
spielt
##se
al
das
##re
##tet
un
##ell
##kl
um
##sp
ne
##ack
##ro
ar
personen
##nder
##den
##ang
##asser
##la
ver
##ern
##mm
##uck
gel
##ik
drei
hand
##op
##acht
##ehr
##rad
##eil
ander
##aar
eines
gro
am
neben
weißen
##ingt
blauen
##us
##urch
##be
frauen
wasser
stehen
hinter
##ran
##ol
durch
roten
ist
schau
##uh
weiß
brau
##kleid
sitzen
lau
fu
ent
spielen
##eg
##uch
##arben
##lich
grun
kinder
kleid
unter
leu
##kt
geht
fahrt
tragt
##ug
##bo
##iert
##elt
##icht
##fer
er
bo
##is
alter
##anz
ober
her
##farben
kleines
##imm
ren
##lle
bau
macht
##um
arbei
entl
springt
entlang
##der
schwarzen
re
##os
kleiner
##gr
##utz
sh
ber
##bau
##igen
##spiel
sie
##teil
fl
mehr
##ick
fahrrad
fel
leute
mehrer
##tw
##eln
gehen
frei
##fahr
kam
##ander
es
sk
lie
ball
##opf
oberteil
##ig
##ige
##ischen
##rand
gra
lach
##uft
fuß
etw
wir
##scha
##irt
etwas
mehrere
##eit
seinem
##auf
##acke
##ort
großen
##ild
schne
par
##ab
gebau
nah
jungen
schnee
vers
##grund
##rille
gekleid
##unter
grunen
##zeu
##alten
oran
nach
##ner
se
##bt
hoch
vo
##ieren
luft
##sam
son
##boar
##schaft
schla
junger
##ff
shirt
ih
strand
##farbenen
le
fot
##ster
bas
lauft
da
##weg
sind
##si
hintergrund
fur
kopf
##ate
##bl
freien
hat
jacke
kleidung
##itar
anderen
##adt
schaut
ko
##spieler
##ett
nahe
##aus
##atz
vorbei
##cke
##zeug
gekleide
asi
##ru
##asch
blick
##tel
gelben
gras
##ull
##ag
##ow
hut
tisch
rei
##sa
##tem
orange
geh
haar
foto
vier
##schau
##agen
war
blo
stadt
##sten
##menge
essen
andere
##fon
gebaude
##art
fußball
wie
##ul
##era
kleine
schwarzer
##board
##pf
##amm
ab
##ank
##cht
##angen
##ahn
wird
##fahrer
tanz
beim
##ing
gegen
park
##ap
gitar
##gel
kleinen
kamera
##iger
hunde
menschenmenge
weißer
asiat
bet
paar
##cken
##ade
##ans
##ert
schwimm
##uhl
##zen
gl
boden
##etter
##otor
rosa
grau
##ische
dun
blu
##he
skate
feld
br
##ink
##eig
bef
##deck
sonnen
viel
zusam
zuschau
rennt
ihre
je
straßen
##ucht
dam
##ver
pos
schn
hol
zei
schl
gitarre
##uss
blond
des
ihren
##ion
##latz
##rik
zusammen
aut
sand
##achen
##fl
##kel
unterh
##ele
##unst
##einander
##tes
##ho
rot
bur
##steig
pfer
##ob
ges
herum
##otorrad
wer
so
ruck
tr
##ingen
buh
alterer
gest
drau
baum
jeans
draußen
befind
te
rennen
buhne
##est
hell
kur
man
wand
fahren
##stell
##elm
base
holz
brille
##wach
##ler
skateboard
gehweg
rau
gew
seine
##kleidung
sehen
##aby
kletter
hinunter
##ikro
##enn
##wachsen
baby
mikro
##ischer
dabei
bank
braunen
kunst
mar
seinen
blickt
berei
##ieht
##kor
kar
##mp
##brille
##le
##iz
me
##hrt
brauner
motorrad
verk
##haar
laufen
liegt
dar
versucht
##for
mus
##hn
##wagen
arbeitet
##ffen
tragen
als
rad
##ock
##zug
voll
##ften
##lichen
##im
##ine
baseball
##arbei
tre
schie
wal
große
dame
gestrei
machen
groß
braun
##rach
arm
mau
schauen
lachelt
##per
##irm
##ket
##stand
versch
burger
ihrem
bild
tur
##ren
orangefarbenen
##itt
##utze
##rikot
altere
arbeiten
##aut
ihm
sei
##ugel
gesicht
junges
burgersteig
##bedeck
erwachsen
ka
weg
##ko
##ange
##ien
hose
spieler
##ßt
##gl
zeigt
wald
halten
trikot
gelb
boot
sieht
ger
gem
##asche
unterhalten
spricht
liest
##sehen
band
hu
musik
tenn
##ke
schul
##geb
betrach
co
##stau
stuhl
hosen
fo
haaren
pferd
weißem
##platz
##fel
##sche
bahn
tag
##enden
auto
meer
helm
sur
##ze
##assen
##ill
##rant
viele
tennis
##uchen
##ketball
zum
sonnenbrille
##staurant
##sst
kn
geschaft
basketball
##ast
stein
##liche
##qu
##eich
##aun
##stru
beob
##orts
gekleidete
grauen
beobach
feu
##fe
seiner
restaurant
##par
roll
felsen
blauem
berg
fun
offen
##ste
##aufen
eis
pol
##ken
de
fri
##br
##otball
football
singt
kon
pf
ihnen
##uhen
##tern
spa
weiße
##zu
##etz
##ahl
mantel
buch
fen
pro
##form
wo
##fu
dunkel
mikrofon
schild
funf
shorts
posiert
##angt
##ckt
darauf
ob
##este
##ullo
feuer
jem
##we
##eren
gesch
spielzeug
versamm
klettert
##arbeiter
##asen
fuhrt
jemand
zur
##anzug
befindet
##gra
einige
ha
blumen
lo
mo
##anger
schutz
##ppen
##elle
regen
tele
##wer
fenster
telefon
##auft
##iet
flie
##ullover
##sack
##inkt
blauer
##ucke
fluss
bade
sehr
##des
##aden
schwarzem
wirft
raum
land
schrei
he
gekleideter
##umm
bun
anzug
zeit
##hnt
po
##aten
##kind
sport
##licher
##strumen
bar
bart
oder
teil
get
##unden
schwarze
arbeiter
fla
haus
gen
ins
##ette
rotem
##att
isst
##ak
##ungen
roter
lachel
to
##uber
mannern
nacht
pullover
kindern
anderer
wiese
gestreiften
maul
uni
##ikan
##becken
langen
met
##hon
springen
wartet
hal
##ater
##gend
##schirm
##haarige
vi
##mit
##hal
##immer
poliz
##korper
##pe
##gang
fest
##ust
bluse
posieren
metall
kost
bele
sn
schm
tanzen
werden
hugel
##ist
uberqu
fotogra
beleb
##iv
##asse
handy
oberkorper
##utzt
##ckey
dunkl
rucksack
voller
##mann
##zeit
eink
umge
bereitet
##scht
warten
schneid
zie
ange
##ierten
kleinkind
seil
zwischen
betrachtet
af
gol
##ekt
##ud
dies
##uckt
fels
blonde
genie
bus
##ager
##brau
##wand
oben
##erikan
##eiten
stock
##utter
##uche
spaz
bes
lil
##ieden
leuten
schlaft
beid
fre
zieht
##arm
##rick
ch
mutze
rut
tro
##haut
##eine
zug
bauarbeiter
lila
pap
##sieht
##immt
lang
pink
wander
##isten
##chten
##hren
lehnt
reitet
snow
handen
##rust
markt
##che
dav
##tr
miteinander
##ache
##ungs
herunter
renn
kunstst
beobachtet
lachelnd
##ub
baumen
ski
kor
out
##pfen
##stuhl
##ess
ihrer
##ichtung
tanzt
##bar
mitt
radfahrer
einkauf
zaun
##bahn
##fall
lacheln
##sh
##her
##amil
kurz
verschieden
##asst
##atte
##aschine
schwimmbecken
famil
##band
schein
sto
##ellen
schneebedeck
vom
beton
##stelle
schiebt
pu
stu
##ende
see
befinden
##feld
haben
fotograf
bal
grill
##farbener
ben
kuche
rucken
##igt
schlag
zuschauer
großer
seite
kus
arbeit
fris
welle
##rt
##uter
instrumen
kurzen
umgeben
##cher
##ation
##altung
asiatische
graff
##inken
treppe
farben
##og
##schuhen
geb
##boarder
graffit
ta
##anst
##spr
geland
verkauft
flag
familie
tor
we
wagen
##hor
##arb
##ies
##stra
stre
gegenstand
gerade
getran
cow
fangen
tau
##fit
mitten
##ief
##schla
sprung
ausge
trinkt
versammelt
fall
kra
pl
pla
##mar
aussehen
papier
platz
##ges
rosafarbenen
erwachsene
schreibt
fr
hangt
##sk
##ds
##innen
##ent
ihn
autos
##stein
schneidet
bik
##yp
star
bel
lei
##zimmer
##wehr
##unnen
##mmt
##boy
comp
telefoniert
viol
##hmen
##dr
rote
##isches
##deo
##gruppe
sonn
schwimmt
teen
belebten
##anstaltung
dr
gar
malt
rasen
##itten
##stre
##alen
rock
##bee
weißes
glas
bunten
spazieren
outfit
cowboy
teenager
mutter
nimmt
wett
##kam
braut
flug
reihe
fußballspieler
gewasser
dre
typ
##sport
##farbenem
##immel
blicken
frisbee
ind
ru
sa
wur
##rich
##net
##ogen
##hut
##yball
##inter
##schri
##onen
denen
freiem
kopfbedeck
vielen
schneebedeckten
himmel
kan
tasche
##lleyball
gekleidet
schlagt
##rustung
##ßer
##teten
##ikum
hande
kampf
gebaudes
##blau
##blikum
brucke
feuerwehr
sonnigen
fisch
##zogen
##jacke
##ampe
orangen
fliegt
publikum
##straße
ak
ju
richtung
##ue
##jekt
##aufer
hinauf
hemden
gelander
kampfen
leben
gestreif
hebt
##markt
##umen
##schn
##eller
grunem
##flache
team
uniform
dunklen
mull
pass
weste
##inger
##geschaft
strei
##llen
beg
##acken
offent
schutzh
zeitung
##om
##chs
schal
spielplatz
hohen
repar
graffiti
gi
augen
gef
asiatischer
blondes
freund
kopfbedeckung
bier
for
##bank
##use
alte
liegen
##igar
gleich
hals
uberqueren
mittler
computer
winter
zigar
##haus
##fest
mannes
schirm
##schl
##atten
hof
##ffe
tritt
hellbrau
pool
jugend
nack
pfl
sol
wasch
##ling
##gebau
##esen
##ender
blaue
verl
herr
zuschauen
##haariger
sau
##erin
##ied
##gew
##atue
mensch
train
bereiten
verschn
davon
dach
##ta
##off
##hemd
##fa
##anc
stuck
##etten
schaukel
##uhe
bereit
unterhalt
##hose
karierten
dunkelhaut
##werk
##ummer
kostum
genießt
kunststuck
hil
##tur
##oren
mauer
decke
lebens
mittleren
all
lacht
schur
##laster
##fahrt
sechs
zuschauern
##brett
##schrift
mund
##hand
##one
geg
benutzt
sil
##ons
grei
menge
alten
alters
volleyball
baseballspieler
##park
ziegel
sold
back
en
wa
##ganger
einigen
##eigt
##elmen
##ucken
gelber
großes
obst
bein
kuchen
##bild
##zt
zusieht
##roh
vogel
fotos
##mittel
einkaufs
bett
lasst
##me
##wei
außer
mitte
weihn
bedeck
armen
nebeneinander
fußganger
reifen
zuschaut
sofa
##kampf
cl
hei
laden
nicht
##afe
##hl
##kopf
##ini
zusehen
verw
##utzen
trinken
nachts
kap
ries
##ka
ang
##euch
hockey
braune
##ickt
##igk
sonne
gemuse
kniet
##halb
aben
ufer
wein
zelt
##reu
##tra
##zaun
##ines
##ition
##under
hinten
versuchen
surfer
zigarette
fe
fer
nummer
trick
##eitet
##ause
##itzt
##amerikan
##assers
unbe
mehreren
##fahren
treten
##rennen
beobachten
afrik
scheint
farbenf
gibt
ker
rotes
art
tennisball
pfad
garten
fangt
##oß
##auer
mannschaft
##spann
##achts
raucht
trikots
##fuß
beide
flagge
offentlichen
eim
fei
krei
##halt
##zert
stange
vorder
bew
bow
##issen
##iges
part
schlaf
abge
betrachten
stufen
verschneiten
schurze
ferne
afrikan
end
mob
rampe
##mmen
##heit
##dien
##vo
##eite
veranstaltung
fuhren
##anzen
gehsteig
##hof
##etzt
afro
wanderer
##blauen
gegner
weihnachts
##rie
##od
##ha
##hund
##uster
##kon
diese
##alle
##olgt
blonden
erwachsener
##gebung
surf
che
##mutze
##vor
einander
##gehen
unten
geld
amerikan
lauf
heraus
lachen
##immen
roller
snowboarder
außerhalb
##pr
##phon
##los
weiter
laufer
sonnenunter
##stellt
turn
gemein
musiker
basketballspieler
kostumen
snowboard
plast
dass
ele
swe
##mer
##chter
mannliche
##iegel
statue
fahrzeug
##ellt
gele
handt
leuchten
reden
##formen
arme
zuruck
rutscht
skifahrer
bikini
lebensmittel
greift
bowling
sonnenuntergang
plastik
vater
##pen
aufschrift
gep
klassen
##liches
kleidern
red
##own
##ings
brunnen
huten
bartiger
##shirt
fotografiert
hilft
kapu
farbenfro
bem
jog
##oten
##mauer
einge
##eibe
schuss
##geht
angel
anzu
##atshirt
##eugt
##endet
##utt
blaues
gelbe
gruner
##boot
##ausrustung
##pflaster
damen
werfen
gelbem
surft
barfuß
polizist
beiden
afroamerikan
sweatshirt
kop
ma
maschine
neu
##agt
##len
##jak
##anten
##schw
##ase
##schaften
hochzeit
haare
polizisten
uberquert
leiter
kampfsport
##festig
##gebaude
unbefestig
mil
the
##skleidung
##man
##ane
##auch
##rat
##ktion
legt
stadtischen
erwachsenen
kajak
##fuhr
versammeln
korb
nacktem
fern
kran
oh
rand
##kw
stand
weib
nehmen
blonder
##kost
konzert
getrank
silber
gemeinsam
leine
off
tat
##nah
##top
##io
##dition
##kten
schuhen
##add
##kleide
##boden
kommt
##zentr
schlamm
regenschirm
schmutz
rutsche
gestreiftem
do
guckt
hind
ir
rein
##app
##ippe
##kar
##aum
##ont
stellt
##athon
spre
tradition
##ilder
beru
kopfhor
waren
wohn
genießen
westen
##iefeln
soldaten
eimer
cafe
dra
fah
lesen
or
singen
wellen
##sicht
##ugen
##watte
##erle
##aub
schutt
spiegel
rodeo
umgebung
entspann
leder
leeren
##blasen
asiatischen
pferde
klettern
mikrophon
kunstler
verkehr
seifen
gelbes
stuhlen
badeanzug
schlagzeug
schutzhelm
form
el
kaufen
lap
mas
##ss
##tre
##halle
##eigen
inmit
aufge
blat
##atur
hohe
umarm
gekleideten
motorradfahrer
kaffe
wobei
verschiedene
balanc
gelandem
streckt
ende
ohne
irgend
sprechen
laptop
inmitten
bu
lkw
motor
pra
padd
ras
wassers
##ecke
##maschine
##do
##pft
##eige
##urt
schwingt
sicher
##egel
schlagen
##ammer
grauem
werk
marathon
beleuch
##druck
##tain
riesigen
mobil
militar
ganz
hort
##uten
##inie
##instrumen
##une
fahrer
schwarzes
bedien
handschuhen
anderes
schauk
grune
alteren
parade
gegend
gegenuber
parkplatz
##verk
sohn
treppen
uniformen
instrument
##richter
tatow
finger
katz
su
scha
spring
##bewachsen
kinderwagen
unters
##grun
bergen
gebauden
shirts
straßenrand
straßenecke
bereich
##korb
offenen
gold
chines
pinkfarbenen
##skop
starrt
jugendlicher
##reuz
gelandemotorrad
jagt
kir
last
qu
sanger
wunder
ziel
##hang
##bung
##kunst
##farb
einz
schatten
schoß
##schuh
##schild
##fenster
durchs
baustelle
##ulp
##verall
schulter
tour
dieser
backstein
clown
party
cheerle
umarmt
cheerlead
alle
bull
jacken
link
overall
pause
tun
##nis
##iff
##dach
##bik
##ute
##eisch
##eisen
##anne
##aren
##ork
##ierte
##irmen
beko
grasbewachsen
orangefarbener
fußballspiel
gluck
##stellung
schuler
gelande
krawatte
dunkelhautiger
##ulptur
fell
gut
netz
ol
tier
zer
##efon
##by
##bst
gepflaster
grunes
##telefon
##ullten
schnau
##hockey
hellhaut
tennisspieler
tromm
schreibtisch
repariert
pflanzen
vordergrund
beste
farb
putzt
was
##ipp
##wa
##ve
##farbene
fahrradfahrer
gekleidetes
gegeneinander
schlitten
sandalen
##auto
##glas
frisch
mod
video
kurzer
taschen
##strecke
flugzeug
einkaufswagen
kapuzen
jo
kunden
ort
wind
##sse
##ip
##uppen
##wo
##team
##orfen
##lage
##iste
fahrradern
schlager
asiatisches
baumst
mikroskop
verkaufen
schieds
footballspieler
##fuhrt
jemandem
angezogen
lachelnde
halsband
bedeckt
kreis
##fuhrung
balanciert
beugt
hang
jahr
lab
setzt
tan
winkt
##nel
##ift
##ok
##co
##bur
##land
##lauf
##weste
##err
innen
##ieder
##raum
##ord
##cker
stiefeln
##amen
##ppich
##endes
##oto
##deon
erde
koch
schlauch
rothaarige
pferden
gewand
##gebiet
##westen
loch
badehose
##ive
ziehen
golf
##udel
felswand
##schlager
dreht
akkor
weibliche
mobiltelefon
schiedsrichter
jon
kh
pick
##lung
##luft
##wart
##adion
##bereich
box
fleisch
##fahrzeug
reiten
orangefarbenem
schnur
##flug
buro
braunem
fallt
kanu
hellbrauner
surfbrett
elekt
leuchtend
klassenzimmer
tankt
akkordeon
khak
fil
ori
wel
zimmer
##nung
##fla
##gs
##ant
außen
##armen
##ischt
##roll
verg
##anzugen
oberteilen
##igem
##ffel
##wegs
komp
tanzer
zeigen
dessen
##mpe
verkauf
gesichts
belebte
golden
davor
ruder
unbefestigten
sicherheit
tanktop
at
kahl
tran
##osen
schuhe
##aler
##urs
schwimmen
##irn
seines
bewe
aussieht
verf
marsch
##brunnen
fliegen
tochter
redet
##nahme
seifenblasen
##treppe
lastwagen
ecke
la
reg
tischen
##ote
##ce
##du
##lett
##fern
##inn
##eichen
inter
##untain
stirn
spielfeld
##iern
##ftuch
##rillen
tramp
skater
##blas
kocht
asiatisch
skateboarder
brun
schlange
spaß
mountain
verschiedenen
kusst
kussen
kranken
##kostum
kaffee
wundersch
schnauze
jongl
khaki
bad
bis
ex
gie
hangen
haufen
ke
mon
pr
teich
##dem
##pro
mannlicher
aufger
schonen
##stadt
stadion
##senen
schauf
##bogen
##umpf
recht
##igur
luftball
baume
teppich
gerust
hub
schultern
geschafts
objekt
geschm
landschaft
lilafarbenen
rennstrecke
ausgestre
##kopfiger
farbenfrohen
kopftuch
hindern
grasbewachsenen
mountainbik
geige
tasse
zah
##ron
##cro
##bad
##kop
##je
##inen
##enkt
##ernen
schuh
spitz
staub
##reifen
hunden
##kleidet
laub
parkbank
##zene
zeich
karate
kai
kappe
hula
flasche
violetten
sax
wurde
feuerwehrmann
##igkeit
schaukelt
kirche
gepflasterten
orient
dir
helmen
kal
na
nur
namen
ruh
##halten
##belt
##linie
##fft
##ffer
##unge
##stuck
##alter
stroh
schwei
##gerat
##alto
hoop
##bewer
##olin
schaufel
unterwegs
grauer
schnell
##hosen
soft
hellen
armell
meeres
geschlos
##halter
freunden
##tritt
##baren
kuste
flaggen
strecke
aussehende
streich
freunde
##kappe
##igkeiten
gegnerischen
bemalt
bedient
oriental
gasse
hot
mahl
sachen
##rem
##po
inl
##test
##alde
gesp
##anda
steine
##eut
##ment
umarmen
##ehrt
##uste
##licht
sieben
##schaukel
schwimmbrille
damit
studen
schutzhelmen
abend
schussel
entspannt
maske
beleuchteten
katze
touristen
bullen
kapuzenp
pickn
trampolin
kreuz
ohr
tri
##hei
##hnen
##ker
##pl
##fullten
##yl
##arn
gezogen
stap
steigt
##indet
##ierter
hinab
new
##opfen
entfer
berge
skiern
##zeugen
##ult
feldweg
befest
##veranstaltung
holt
zeichen
turner
seiten
hupft
langem
langarm
##sprung
wettkampf
verwendet
kopfhorer
fahnen
springbrunnen
tunnel
vergn
sicherheits
jongliert
##bewerb
bilder
hel
hor
kauft
licht
rett
##eck
##ian
##bus
##bis
##ki
##kte
##ga
##zeigt
eins
einsam
mittel
##arbe
##stu
##ale
##rasse
klippe
##inder
schwer
##irr
umzug
##ackt
##eilen
schaufenster
erd
##baum
##pfl
brett
schießt
couch
rollstuhl
eishockey
prof
protest
lachelnder
dunkler
fotografieren
fallschirm
wurf
teams
reparieren
anzugen
blatter
links
rechts
softball
ei
kart
per
ringen
ter
teller
wuste
york
zahl
##seite
##och
##osten
##hugel
##lei
##inge
##eister
##ard
##gegen
geschen
gebl
gefl
geoff
##ichtet
anh
grim
blast
sitzende
##utsche
hockt
ausrustung
##ophon
asiate
reiter
gesaum
hellblauen
braunhaarige
bucher
projekt
heben
##udio
wandert
##fallen
stoff
grillt
instrumenten
aussehender
cowboyhut
ruht
dunkelhautige
##weise
beruhrt
schuttelt
##grunen
##kunstler
bekommt
verfolgt
rettungs
dis
linken
nase
sm
samm
tuch
ur
##richtung
##tisch
##hil
##hol
##helm
##bart
##kat
##fte
##zer
##zie
##schuhe
##scheibe
##ement
voruber
##iertem
uberfullten
personengruppe
verz
veranda
##ktor
##aufnahme
essens
gitarri
glatz
steinen
sportler
einkaufst
instrumente
beinen
amerikanische
handtasche
reinigt
##verkaufer
bestehen
##flasche
geschlossenen
mahlzeit
bach
fischer
gucken
jap
jub
kau
salto
trei
uben
##ed
##teln
##isp
##ium
##muster
##bor
##wasser
auch
##scher
##schirmen
##alon
stro
steigen
##eskop
blatt
##etzen
##sent
beige
umher
##sperr
##rock
amus
wasserfall
untersch
erkl
bauen
kamer
vorbeigehen
asiaten
asiatin
schlei
##arbeiten
gerat
knie
hauses
diesem
felsigen
pinkfarbenem
balkon
gebiet
plan
handtuch
offnet
##zentrum
traditioneller
lederjacke
zahne
japan
bre
brust
fert
fast
froh
ki
kann
lager
mat
pat
tief
wild
##oo
##mas
##mitt
##bel
##brillen
##kra
##laden
##gitar
##yboard
eingang
##itter
aufblas
auftritt
##schm
##schutz
##stur
stur
gruppen
##itzen
##bereitet
weit
neop
vert
fahrrader
nachdem
##ullt
gewehr
##struktion
##stehen
halb
schneiden
dieses
getranke
taucht
winterkleidung
hellbraunen
wascht
verlassen
kerl
##hafen
untersucht
cheerleader
baumstamm
ausgestreck
neopren
bm
fau
kuh
kab
kickt
kissen
not
pal
tel
tarn
ubt
wasche
zunge
##av
##ippen
##zeich
##viert
##chte
schot
##schein
##stag
##ichten
sitzender
schwe
bekleide
beieinander
##icker
##fahrern
##zeuge
sees
schlafen
kommen
##ulli
werbung
somm
kurve
skateboardfahrer
darunter
vollen
schießen
dunkelhaarige
bunte
taucher
passanten
allein
fußgangeruber
weitere
gelegt
##mantel
prasent
jahrmarkt
##warts
gießt
terrasse
teleskop
bord
heu
lehr
moto
nassen
rug
top
##ic
##mt
##mus
##hangen
##fr
mitgl
##testelle
##uni
##unk
##stock
ged
gezeigt
##benen
vorn
hinaus
becher
trager
##ilden
hinterher
flache
##ickelt
##igam
kochen
##pfel
schwimmer
bringt
straßenkunstler
gesich
geworfen
karten
med
vollfuhrt
konnen
konzentr
produ
spazier
##stuhlen
brautigam
hockeyspieler
gepack
rasiert
##ippt
brunette
keyboard
hindernis
##cross
helfen
geschenk
unterschied
acht
brei
matte
ser
sel
topf
zement
##ritt
##age
##sel
##egt
##ton
##tasche
##ober
##haufen
##piel
##pfer
##ymp
##xt
schone
geben
blum
##unde
spiels
sitzenden
##iere
rohr
##llt
begl
alt
##kletter
verkleide
##farbenes
abs
gleitet
brot
karren
##lege
waldgebiet
geschirr
schreit
polizei
besen
bespr
benutzen
arbeitskleidung
##schlag
plakat
stark
dreck
akust
begut
sauber
##gewicht
angelt
feier
drachen
paddelt
tatowier
schafer
glucklich
hellhautiger
schnurr
goldenen
studenten
##stufen
##hilfe
##gitarre
neoprenanzug
rugby
ban
cam
deut
figur
farbe
hur
kehrt
mei
nass
ring
runden
selt
##ocken
##hem
##kate
##lie
##leu
##laufer
##feu
##gem
##eis
##itte
gek
stab
stamm
jungs
hundes
##neten
##roten
verkleidet
##bekleidung
fuße
herab
rechten
berges
grabt
nahaufnahme
##deckt
manteln
musikinstrumen
bahnsteig
tennisschlager
teilne
##attform
##mannschaft
##chester
leicht
violet
wettbewerb
flughafen
##schnitt
##ance
alleine
##zaunten
feiern
weihnachtsbaum
turnhalle
theke
irgendein
chinesischen
trommel
modell
jockey
bewegt
namens
armellosen
kapuzenpulli
entfernt
geblum
disk
bmx
motocross
tragerhemd
konzentriert
begutach
schaferhund
seltsam
bie
dau
dor
folgt
jagen
kalten
ketten
lange
lassen
oper
pit
pier
rast
segel
ub
ze
##richt
##tag
##ena
##ittel
##are
schub
schiff
##stern
##statt
##emal
##ortw
station
##inden
demon
##gerust
beschaft
bekleidung
handstand
##olk
entgegen
bauch
skulptur
ballon
lehnen
koffer
wandbild
##ocks
braunes
bahnhof
geschaftigen
rolltreppe
offenem
jemanden
trocken
trompe
lachelndes
korper
gegenstande
indische
trainiert
soldat
afrikanische
weihnachtsmann
angelru
hochzeits
wohnzimmer
videospiel
saxophon
stapel
befestigt
strom
##legestelle
schnurrbart
dane
fischen
fans
gass
gang
har
horen
jack
kegel
nied
oze
pa
sen
tatt
zahn
##rutsche
##salon
##ia
##ohn
##huter
##dre
##bes
##buch
##usch
##pel
##zahl
##wur
##ity
##eligen
mannschaften
aufs
scheibe
sta
statt
steilen
klat
klav
##reichen
##eutel
hocke
hinein
traktor
ihres
arena
verb
##iker
##ops
stehenden
##ole
fußen
##anze
herbst
baut
mehrfarb
freizeit
ess
ballons
parchen
nahert
hochge
##wegung
blue
bringen
sonnenbrillen
blondem
##stellen
holzernen
motorradern
baseballkappe
bildschirm
gemalde
##geboren
restaurants
decken
##brucke
pfutze
pfosten
hafen
##haltestelle
bushaltestelle
rennwagen
kunststucke
arbeits
begeister
##ommen
jugendliche
trainings
weint
gelehnt
joggen
silbernen
werkzeug
olymp
labor
komplett
kahlkopfiger
transport
schaufelt
mountainbike
spitze
streichelt
##reme
picknickt
daumen
daneben
ast
du
eur
gumm
hau
hammer
ich
kugel
kisten
lock
natur
pin
ra
tut
##szene
##hau
##dy
##ugt
##ksam
##kugel
##locks
##zeichen
##ym
##vers
##xi
##anlage
##eiter
##itat
aufmer
##strand
##stange
##streifen
##rate
##raten
##ragen
gepar
##orter
speisen
stier
start
##adlocks
blei
vorne
##ama
##allen
sicht
##eucht
##othe
##rigen
besch
behalter
spritzt
menschengruppe
##dent
dreirad
##icken
graben
##samm
jungeren
##aschinen
##saal
stadtstraße
abzu
skatepark
straßenhand
##ussel
socken
kletterer
##haarigen
baseballspiel
treffen
##kommen
steinmauer
deck
##dessen
teilen
schmetter
langhaariger
scheinen
zuschauermenge
graffitis
getranken
##skulptur
dreadlocks
passag
##gewohn
einkaufszentrum
heiß
heißen
bewund
##voll
rollerbl
joggt
schmutzigen
kopfhorern
orchester
motorroll
suß
einzeln
krankenhaus
wunderschonen
luftballons
zeichnet
inlines
##ziehen
ausgestreckten
selbst
hurde
dorf
##ortwagen
gassi
klavier
aufmerksam
geparkt
aber
ahn
brand
di
fass
kumm
leg
mop
mess
nicker
pe
rie
ton
tal
tab
##tute
##uff
##keit
##pack
##gro
##innt
##ere
##ausch
schon
##sta
stellen
anlegestelle
##bern
schwach
##reiche
madchens
##eiden
##eum
bearbei
##klam
neon
hinterhof
##box
erl
erho
alteres
rede
kamel
balls
nahmaschine
vorbeifahrt
warn
gitarren
rosafarbenem
zusammenge
schle
sandd
kunstwerk
radern
baseballmutze
##autom
knien
schutzbrille
bunt
##uttert
##ricket
chor
outfits
typen
##bildschirm
geldbor
amerikanischen
bowlingbahn
neugeboren
fingern
##woh
rudert
direkt
strohhut
kreuzung
gesaumten
gitarrist
kids
##kates
violettem
geblumten
diskut
beschaftigt
rollerblad
einzelner
nickerchen
##automaten
bat
dicht
dinge
eben
kr
puck
port
piz
runter
teig
will
##seit
##ohemd
##bro
##usten
##ph
##wanne
##enz
##anen
##eier
##eimer
##elten
mithilfe
##unkt
schacht
##steigen
spe
span
spar
str
strick
klapp
##eta
rocken
##rohr
verhei
bogen
herd
bauern
show
flausch
freiluft
lachend
##eitung
##zeuger
##agel
hutte
##sage
gehalten
stadtische
wanden
gewassers
klettergerust
banken
kariertem
##arbeit
##kette
schule
steinigen
##etzten
regenschirmen
fotografen
rucksacken
kunststoff
mittag
balken
schlagzeuger
freu
beladen
bedeckten
schlafanzug
afrikanischer
##konstruktion
bowlingkugel
beruhren
windhund
##cours
marschiert
feuerwehrmanner
##pool
anhat
amusieren
aufblasbaren
verteid
blume
trompete
angelrute
tattoo
bearbeitet
verheirate
bi
dudel
kaut
lippen
maler
noten
nieder
richt
richtet
sow
sucht
setzen
trau
##ages
##sstand
##ep
##tor
##oben
##ose
##mod
##dra
##kan
##kun
##pt
##gi
##gar
##geln
##ys
##jo
##chn
##eiger
##iten
schirmen
##rampe
gepark
##aste
sportwagen
stol
stift
angeb
##essi
blas
steckt
spielkleidung
##ampen
schwenkt
robe
becken
ungewohn
umhang
verteil
fullt
##egten
kleider
##ktive
##llege
##spielen
flachen
lied
ballett
parkt
jungere
kopfuber
fußballfeld
gegenseit
schwimmbad
brenn
schlitt
sandstrand
##hou
offenbar
deko
konfer
dunkelblauen
geschn
mog
flussigkeit
zeitschrift
##ival
rennauto
outdo
grillen
geburt
tafel
torhuter
fallen
plattform
fremd
##richten
silhou
club
heim
riesige
abendessen
kerzen
##issenschaft
##vollen
elef
lebensmittelgeschaft
wasserski
super
gelandemotorradfahrer
backsteingebaude
##luftball
stirnband
geschmink
##jeans
gesprach
trib
eisen
bestehende
beigefarbenen
##maske
##schmuck
schotter
lehrer
##oberteil
operation
schubkar
bluejeans
picknicktisch
##othek
##sammlung
straßenhandler
heißluftball
moped
##wohner
rollerblades
##draht
##kunft
gegenseitig
outdoor
app
bunter
bru
findet
futtert
gurt
hig
hart
kiste
lim
malen
noch
ohren
pi
pel
tru
wach
wissenschaft
##sau
##nes
##hm
##dog
##dium
##bbelt
##kul
##go
##waren
einrad
##ndon
mitarbeiter
##unt
##str
##stuch
##racht
gespr
geschaften
##genen
zuh
zuge
schwert
ros
fahrgeschaft
##rischen
##riff
beißt
##seur
##spar
##spre
##rok
##opa
wasserflasche
##ranten
##olkten
##uchte
##ktur
herz
herren
##llegen
##dert
esel
dazu
##ble
kom
grasflache
absperr
graue
jeansjacke
wandern
rauch
rauchen
##izieren
verkaufer
##ienen
geschaftskleidung
rollt
dekor
##formation
dunkelhaariger
london
badewanne
schreiben
##kinder
sportveranstaltung
halstuch
seilen
##essel
tauben
wettrennen
frisbeescheibe
##richtet
feuerwehrleu
##schnitten
waschsalon
trainieren
hilfe
##kopfige
fegt
tricks
feiert
kreide
bewolkten
##volleyball
surfboard
farbenfroher
fernse
reinigen
fahne
entspannen
eltern
paddeln
untersuchen
quad
sangerin
##burg
interess
kalb
schweißt
turnerin
grimasse
planscht
fertig
palmen
sommer
altmod
begutachtet
##euchtung
sußigkeiten
brandung
sanddune
geldborse
dudelsack
dekorat
geburtstag
high
20
achter
bann
bass
buckt
beine
dah
fal
kies
kricket
lass
mi
min
mor
piste
ringer
wischt
##trick
##ost
##cl
##hten
##hmer
##bein
##bemal
##laufen
##foto
##ins
##ino
##eise
insp
schar
##stift
stangen
steu
##ammen
schwarzwei
##ott
##irl
uberpr
ubergewicht
befahren
beisam
ausgeb
arzt
##lagen
##ikul
stehende
##rank
##olgen
refl
reklam
flur
floß
ballen
##abrik
##block
orangefarbene
blocken
##artigen
##gelben
gleichen
dunk
viellei
straßenmus
schlend
##usses
##ussell
##flie
burg
rucks
baumes
tex
marine
##izin
motorrader
waldweg
bandan
basketballspiel
eisc
kont
##etzte
prob
schildern
obdach
blumenmuster
moment
regenbogen
##werfer
poster
podium
sportkleidung
flaschen
maulkorb
##mitgl
festhalt
schmuck
##braunen
herunterge
mittages
scheinbar
stufe
taxi
##springen
bike
violine
dritte
teenageralter
indian
saiten
mullton
gefullt
verlasst
saugl
##geworfen
ziegelmauer
engen
##weis
klassenraum
kapuze
eingezaunten
afroamerikaner
kopfen
theater
fernglas
verkehrs
buschen
bekommen
tennisspielerin
welpen
kompl
attra
bewegen
marschieren
naht
hotel
eishockeyspieler
zahlreiche
sammelt
treibt
faulen
fußgangeruberweg
##uniform
medizin
verkleidete
bespritzt
akustik
##wurf
europa
bewundert
motorroller
messer
erleuch
diskutieren
silhouette
elefanten
schubkarre
##bemalung
uberpruft
beisammen
ausgebrei
vielleicht
mittagessen
bill
fein
fack
gym
hier
irok
kuhl
linie
muster
py
sw
sack
szene
wendet
zopfen
##az
##een
##nast
##nimmt
##tim
##trikot
##id
##ial
##iothek
##ocke
##min
##mal
##back
##biet
##beutel
##up
##ufer
##kann
##kap
##kurs
##putz
##pru
##lern
##wich
##wir
##iner
##ernt
##elnd
auffuhrung
##unz
##ieß
##schul
##einwand
derby
ans
##urtel
zubereitet
##iertes
##ierende
##schendraht
##gern
##decke
bevor
aussicht
##aher
unge
verm
verdeckt
##ika
##eile
stehender
##ktiv
##boten
entlanggeht
fahrrads
gehende
ballerin
nachsten
leger
##bliothek
koche
vorbeigeht
##schaut
##gelander
##gelassen
asiatinnen
rosafarbene
sonnenschirm
sandwich
buhnen
gestikul
museum
radrennen
schieben
turb
turk
boots
stuhle
##formigen
geschw
lok
locken
loffel
landet
landlichen
teilweise
hausern
##akd
##zeitig
chin
trop
trock
marktplatz
##bare
stofft
web
webt
aussehenden
##steinen
starren
drinnen
##kamera
indischer
gestreiftes
streifen
beginnt
gleichzeitig
computerbildschirm
##gebaudes
lebensmitt
greifen
reifenschaukel
##hlet
##kasten
pfadf
snowboardfahrer
afroamerikanische
maschendraht
neue
rande
hindurch
##karte
blattern
##ammerung
einzel
clowns
trommeln
farbigen
##way
##teams
innenstadt
rothaariges
gewandern
elektron
khakifarbenen
schaufeln
hubsch
ruhigen
hotdog
##heim
horn
einsamer
profi
grimassen
rettungswesten
glatzkopfiger
jubeln
kameras
breakd
patien
mitglieder
camp
pitcher
lockigen
tablett
neugeborenes
bibliothek
rosar
achterbahn
reflekt
bandana
akustikgitarre
gymnast
irokesen
##kapelle
apfel
bilden
cell
dri
et
fit
fanger
fabrik
gera
krie
los
later
mc
mutzen
puppe
pil
rund
sar
sort
sub
wol
wange
##renn
##aschen
##tion
##ister
##ool
##ofon
##ma
##ca
##hammer
##dun
##bett
##utern
##kuchen
##kuche
##fangen
##figur
##zten
##wel
##wie
##weil
##wasche
##ven
##jung
##enken
##itr
schach
schri
schilder
##stisch
##station
##ong
##onal
##org
stat
stahl
stunt
##ichte
##adel
klasse
gru
##essen
##acher
ble
##undel
imbis
##etze
##itzer
##henden
vortra
vorbereitet
##endem
kindes
##menade
##otiv
hoh
bewegung
altes
##reg
##reten
##rolle
handchen
handler
handschuh
wasserm
stehend
schaum
brauen
entfern
##egeln
##lichem
##lichkeit
##fert
bohr
bauarbeiten
rechte
##oss
##ossen
flote
liefer
##ign
##abel
leckt
##blat
asien
##owen
##schauen
rosafarbener
geste
werfer
manche
gewickelt
kunstwer
karte
radfahrern
gemuster
college
friseur
versammlung
badezimmer
##istole
langhaarige
betonwand
schlagmann
papiere
violett
##dress
cowboys
streicht
trainer
wake
abends
feder
##loser
plastiktute
gepunk
barfußige
unbefestigte
pferdeschw
wassersp
werkstatt
##instrument
schaukeln
labork
golfball
film
gesichtsbemalung
exper
luftballon
saxofon
vergnug
jubelt
##klettern
##liegen
namensschild
kettensage
ozean
klatscht
olympischen
##haube
inlineskates
strickmutze
##etafel
verheiratetes
sowie
geparkten
tribune
##spark
feuerwehrleute
banner
mulltonne
gestikuliert
gymnastik
geraten
asp
bam
bro
con
dj
em
huh
hange
kil
kell
kul
kette
lernt
maschinen
pon
putzen
pudel
packt
rik
sl
sy
san
suchen
tie
tack
tank
uhr
usa
wahl
yog
##ring
##sur
##nem
##iment
##mat
##mob
##maten
##ders
##donal
##bal
##bra
##kreuz
##lauft
##fri
##feier
##wett
##yd
einheim
##anien
##elbe
##elig
mannliches
##arter
schafe
##stimm
##stander
##statue
##rauß
##emon
anz
aneinander
ansieht
anweis
zuhor
blasen
##inde
##etrie
##bereiten
##ambur
schwingen
rost
##attel
##ungspark
schwarzhaarige
hoher
home
hocker
##rill
beach
bedruck
auszu
ausland
haltung
ungl
##ellschaft
nebel
##rob
##behalter
##olen
fuhr
leucht
erw
booten
##anzenden
flach
balle
##igiert
wirbelt
##ildet
schneeanzug
verste
oranger
legen
##wegungen
kopfe
##agieren
warmen
##anke
tanzerin
paare
schwimmweste
glanzenden
schnitzt
autob
sandigen
##kelten
herumstehen
soll
ruckwarts
tee
##estern
hellro
kurbis
holzbank
##iziert
mex
verschw
turen
##bedeckten
##angehor
spielerisch
bandmitgl
hute
##gebunden
bahngl
knei
knopfen
pflaster
##fuhren
fliesen
badeanzugen
##ummel
post
snack
dunklem
##mannschaften
angeboten
##udd
##brauner
besuch
##falls
frisur
gebeugt
##horn
##schlagen
sprungbrett
ausgestellt
kragen
kraft
beleuchtung
computern
druckt
##schriften
fischern
akrob
gestreifter
freundin
##schlauch
waschbecken
saulen
verschneite
engel
waschen
watet
mobel
bemalten
schusseln
traditionellen
draht
aufgestellt
laptops
treppenhaus
treppenstufen
katzen
quarter
##nisse
hellhautige
boxen
##flugzeug
welpe
pruft
aufgerei
mountainbiker
staubsau
nahen
inline
mittelalter
geoffneten
anhanger
treiben
schleife
tarnkleidung
prasentation
gesichtern
produkte
spaziergang
rohre
begleitet
tatowierung
tatowierungen
banjo
ubers
jackett
trainingsanzug
kummert
##uffelt
##staben
portrat
##brocken
strumpf
##ession
konferenz
heißluftballon
201
texas
turkis
pfadfinder
maschendrahtzaun
breakdance
cello
mcdonal
schrift
wassermel
lieferwagen
kunstwerke
gepunkteten
vergnugungspark
asphalt
bambus
kellner
##balken
autobahn
bast
city
dock
go
gurtel
kuss
live
leinwand
mal
netze
ofen
pun
papp
rah
ruhen
stern
us
wen
welt
wette
zyl
##atet
##ace
##stet
##seil
##ous
##maher
##dern
##bie
##uscht
##lust
##zw
##ziel
##zune
##vie
##vieren
##vent
##inten
##enk
##ansammlung
##itor
inner
##elte
auge
mannlichen
aufzu
##ießen
##iefel
##stap
##studio
##stanien
##als
gesen
##ordent
##eingang
stri
stru
##genommen
##andschaft
##ader
klar
zucker
vorders
##reiter
##allow
weil
##uth
strahl
uberall
beam
bekleidet
unordent
##klippe
umr
##roffen
##last
handschuhe
wasserrutsche
##rangt
untergrund
ern
erzeug
boo
bock
##iss
oberen
##imming
kleineren
##spielern
gehender
liege
nachbar
jungerer
##blick
reis
warm
fußballdress
##ammert
abgeb
abgeworfen
##heke
jeder
jeep
straßenverkaufer
schnapp
kurze
babys
karussell
baseballschlager
braunhaariger
turoff
kastanien
##kollegen
gemacht
cola
helme
surfen
knall
rollschuh
eiswa
woll
obje
##graben
loschen
telefonz
##licherweise
schminkt
kleinkinder
felsvor
rutschen
pinkfarbener
rennfahrer
verschiedenfarb
stocke
stoßt
##springt
gegenstanden
krat
pluscht
fruchte
biker
##druckt
glasern
indem
wurden
kante
feuerwehrauto
passenden
gefullten
jugendlichen
##taschen
##werker
volleyballspieler
waffe
obststand
fußgangern
verwenden
##reut
kerle
##spannt
eimern
##haben
amerikanischer
turnschuhen
leuchtenden
armee
redner
afroamerikanischer
##schwimmen
silberfarbenen
ord
schutteln
kaffeet
pracht
marathonlaufer
gelandewagen
tiere
besteht
john
ortlichen
transp
wunderschone
##projekt
orientalische
picknick
langarmeligen
einsatz
brettspiel
karton
perlen
gefleck
smok
sammeln
urein
einkaufstasche
erklimmen
japanischen
lagerfeu
##krafte
schwebt
bekleidete
bekleideter
prasentiert
bordstein
topfer
mitglied
unterschiedlichen
serviert
absatz
stammes
teilnehmer
seltsamen
bietet
zebra
transportiert
legg
pizz
sparlich
flauschiger
freude
stolz
verteilt
geschnitten
moglicherweise
eisenbahn
bruder
pelz
gesprungen
##sprecher
eiscreme
saugling
swimming
ballerina
webstuhl
lebensmitteln
reflektier
##dunkelten
pferdeschwanz
wasserspren
laborkittel
experiment
rikscha
beachvolleyball
quarterback
2012
rahmen
zylinder
##zunehmen
vorderseite
turoffnung
swimmingpool
aqu
axt
buck
bag
car
del
dammerung
eier
font
hab
hist
hallen
kit
kat
kick
kauf
kasse
kittel
lin
lich
lampe
lampen
mischt
nasser
nagel
op
pull
rud
relig
sumpf
tim
##nch
##netz
##tanz
##ii
##iften
##mo
##cor
##hel
##hack
##how
##da
##digen
##uht
##ude
##kund
##les
##fig
##zin
##wol
##wander
##jacken
##inz
##inos
##ennen
einf
##chern
##chtem
##auber
##elzen
##annen
aufzug
##schur
##schiff
##schussel
##stor
##steiger
##onnen
##get
gesehen
deren
studio
stelzen
##esse
##achten
vorrichtung
##ierung
rode
##reis
##reibt
##reicht
##llie
##utlich
hood
##rig
##ischem
uberdach
bestellen
spruh
ausstellung
##nehmen
##ahnen
tracht
menschenansammlung
##rechen
uns
unfall
verst
##uckter
##becher
##rankten
schaulust
unterrichtet
unterwasche
##ugeln
erhalt
erreichen
board
##isse
herkunft
##spielzeug
sieg
fle
flip
fahrradhelm
##fahrrad
skil
ließt
lachende
parcours
schneeschuhen
##nerischen
strands
kopfschmuck
##blickt
##ausstellung
block
fußballmannschaft
wieder
##pfad
##gelegt
##ertag
gleisen
jeweil
schneit
blondhaarige
unterhemd
ruckseite
trot
trink
hellblau
##stellten
holzzaun
holzboden
##legt
großeren
bildern
turm
##iene
gericht
hupf
schulkinder
rollen
bergsteiger
pfeil
schutzkleidung
schutzausrustung
landstraße
toil
tomaten
festival
festgebunden
##iven
einkaufen
##wandt
##iedens
lachelnden
korben
##show
kurzem
stocken
puppen
strecken
##schlafen
friedens
drink
kanad
fischt
mulleimer
streichen
beginn
offentlichkeit
gefolgt
liegenden
halskette
##schluss
pflanze
herrn
saule
kostume
ziegelwand
ziegelsteinen
ente
##tragern
bewalde
partie
abgestellt
afrikanischen
##konzert
eingeschlafen
maht
##kostumen
offiz
##aumten
formt
motorhaube
##tainer
##verkauf
schaf
ziellinie
overalls
zeremon
##glasern
##burste
##landschaft
schlauchboot
boxer
filmt
verkaufsstand
##alerie
fliegenden
lacro
regnerischen
aufgeregt
staubigen
trifft
vergnugt
##kisen
##gabe
erdhugel
##holz
essensstand
gitarristen
kauert
amusiert
frohlich
##mittag
##zeichnung
##viertel
##front
##uniformen
meiß
meisten
##feuert
demonst
stromschn
niedrigen
verbunden
freizeitpark
gummi
ebenfalls
klappstuhl
richtungen
##garten
angebracht
ungewohnlichen
fremden
lasso
morgen
##beinen
ubergewichtiger
burgunder
rucksitz
obdachloser
heruntergekommen
turban
laternen
wolken
vortrag
entfernung
kilt
synch
mexikan
akrobat
aufgereiht
staubsauger
unordentlichen
erzeugnisse
bootes
abgebildet
kratzt
ureinwohner
lagerfeuer
leggings
histor
lacrosse
brillen
bindet
busses
bzw
dig
dom
fas
fang
fische
fasst
folgen
gabel
hambur
hallow
it
inder
lack
late
latz
lade
mel
munz
osten
pop
pru
pullo
sal
seg
sessel
sattel
tem
tuten
uf
volk
wenn
zitr
##rier
##riert
##suber
##ide
##ipfl
##ov
##opp
##ochten
##mor
##mitar
##mutzen
##maler
##con
##cre
##hu
##hirt
##kas
##kmal
##lampe
##laub
##falt
##gitter
##zuh
##zone
##wahl
##yer
##int
##enen
einzu
##chan
##chsen
##antel
aufw
aufre
aufnahme
schok
##stall
##stab
##stamm
##alb
gefallen
gespannt
spul
speise
stil
still
steile
diesen
ant
anhaben
##adung
klaren
##indigkeit
##erspe
##bert
vorfuhrt
##ata
##eug
fahrzeuge
##utscht
##beiter
hohem
##irur
uberpru
spritz
alko
##kle
verbr
gelangen
##ike
amer
ampel
wasserbecken
wasserflache
hinterbeinen
##olf
laut
fullen
unteren
##ish
oberflache
hervor
##ump
##oser
##gru
##spielt
flipfl
etwa
nachrichten
##ffeln
lecker
##blase
komm
reihen
orangefarbenes
gehstock
ware
wart
##arty
fußballtrikot
##pfahl
##anken
##ahnlichen
tanzflache
betreten
straßenarbeiter
straßenfest
straßenseite
position
holen
##flip
##hoch
##hoben
pferder
##objekt
text
rennens
heller
holzkonstruktion
skateboards
karohemd
##izont
darin
daran
darbiet
muskul
vollig
bildes
seichten
musikgruppe
tennisp
betrachter
tagsuber
steintreppe
feuert
eiswagen
polo
polohemd
konstruktion
##zuklettern
fenstern
feuerwerk
hawa
loh
schutzt
schutzen
regenmantel
##werfen
flusses
flussufer
zeitschriften
getroffen
toten
univers
einkaufer
umgedre
angehalten
felsbrocken
spaziert
besitz
besucht
##armon
chirur
zauns
##shorts
familien
scheinwerfer
schneebedeckte
schneebedecktes
tages
##springer
ausgest
ausgezogen
platte
platten
plate
aussehendes
fruh
dritten
dritter
rasenflache
brautjung
flugeln
sagt
akten
uniformierte
uniformierter
passiert
gefangen
forscher
saugt
schurzen
##handschuh
eng
##hlen
hockeyspiel
gegnerische
##rieben
laufbahn
laufband
herausge
heraushangen
weiteren
kampfsportler
offnen
schlammigen
dosen
formeller
mask
busch
beleuchtet
bedienen
##verkehr
tatowierte
chinesische
gelandefahrzeug
old
flugzeugs
angezogener
elektrischen
##flaschen
außenbereich
laster
intervie
badem
hubschen
hubsche
ausgestreckt
hindernisp
armellos
orientalisch
student
kapuzenpullover
entfernen
langarml
vergnugen
sicherheitsweste
horizont
##gaben
protestiert
kartoff
kartons
##leiter
geoffne
geoffnet
smart
verzierten
einkaufstuten
wildwasser
sturzt
notiz
##scheinlich
##pielzeug
##pferd
##klettert
rugbyspieler
figuren
musikinstrumente
teilnehmen
segelboot
staffel
begeisterung
haupt
pinata
passagiere
ahnlich
peace
##großen
schoner
erhobenen
schachtel
speer
bauernmarkt
verteidiger
fernseher
dahinter
##club
befahrenen
reklametafel
straßenmusiker
schlendert
attraktive
erleuchteten
fackel
##putzer
geschwindigkeit
lokal
china
patienten
camping
irokesenschnitt
dribbelt
##rennfahrer
stativ
blech
imbiss
hohes
wakeboard
huhn
yoga
bedruckten
ungluck
kneipe
fischernetz
umringt
nachbarschaft
felsvorsprung
pluschtier
pizza
pullunder
rudern
hoodie
jeweils
bewaldeten
stromschnellen
heruntergekommenen
synchron
hamburger
halloween
##mitarbeiter
schokol
uberprufen
alkohol
flipflops
darbietung
tennisplatz
interview
10
and
air
aktiv
bundel
cro
creme
dick
dicken
erei
event
fro
facher
gas
gla
haut
hause
halle
hyd
is
ip
jen
jet
kie
kehr
kusten
lu
lig
lust
lernen
mag
muss
of
pul
passt
raus
rust
richten
sam
squ
them
ubung
wetter
wanne
xyl
zelten
##rein
##roren
##set
##sil
##eben
##echt
##nier
##nungen
##tier
##tuch
##topf
##ond
##oll
##mart
##motiv
##hle
##ddy
##kol
##ktem
##krem
##paar
##punkt
##perspe
##losen
##lose
##fol
##full
##farbe
##gers
##ging
##gurt
##gaste
##girl
##zuhe
##was
##vern
##inner
##enzt
einiger
eingew
##ante
##eim
##eife
##itu
mitspieler
aufges
##tete
##unken
##ieb
##ießt
schrau
schalt
##schar
##schung
##schienen
##stiefeln
##strauß
##onne
##rauber
##ematte
##gesch
##geben
##ram
##rab
##rag
##ragt
##rahmen
gespielt
##orch
##orten
stach
stutzt
stiefel
ansehen
anzahl
grund
##espiel
bla
blut
##indern
vorsicht
vorfuhrung
##amann
##ierc
##ierend
schwenken
rod
rosen
rotw
##reide
##athlet
##ppel
fahrzeugen
##geraten
beten
betet
beißen
spritzen
spruht
ausz
auslage
ausflug
albern
##rote
##romm
arch
##angeln
verh
##iken
##opft
##opol
##bewegung
##bewegungen
grunflache
erhe
erle
oberhemd
bauwerk
##umpfen
arbeitern
flo
flops
kampft
esstisch
skatet
##igten
schneem
paras
nachmittag
hochstuhl
hochhack
vogeln
leb
##siv
kopfstein
##bluse
gehol
blockt
stadtpark
##pfosten
abfall
##apier
beteil
graues
feldhockey
sonnenlicht
straßenrennen
straßenszene
schnuffelt
schnorch
schlucht
##ionen
sandhugel
sandburg
rothaariger
burstet
soon
soeben
tren
techn
teddy
hellgrunen
##stellte
gewinnen
marmor
daruber
##ims
baseballfeld
schieß
walmart
großstadt
##rache
armband
verschrankten
##kommt
spielerin
hufte
##kee
hosentragern
bahnstation
basketballfeld
steinbank
##struktur
rollers
footballspiel
konf
pfanne
spaht
buchstaben
dunkelheit
feuerstelle
spielzeugauto
logo
mopp
mochte
telefonieren
fliege
##ummern
sporthalle
metallstange
schmalen
handys
ziegen
dieselbe
besp
papiert
betonmauer
betonpl
umgebenen
street
taube
ausgeschnitten
garn
garage
rasenmaher
##streckt
rockband
teenagern
wettei
indien
indust
ruhrt
sage
kopfbedeckungen
gestreifte
mullcon
##ome
reparatur
gipfel
gefroren
gleichgewicht
waschmaschine
aller
volleyballspiel
ziegelbau
ziegelgebaude
backer
backflip
fecht
unbekann
farbenfroh
vorderen
schlafzimmer
##hunde
chef
##vorrichtung
geldautomaten
##phone
weiterer
lauferin
turnier
gelegenen
jogging
afroamerikanisches
mais
kajakfahrer
##fuhrer
fernsehen
randstein
silberne
dose
##karren
spiegelbild
seifenblase
elmo
tourist
backsteinmauer
gepflasterte
frischem
##ips
baumstumpf
angezogene
hangematte
##flugeln
gesichtsaus
gießen
monopol
aufgereg
geschmuckt
kalte
ruhig
orientalischer
sicherheitswesten
schwere
geflochten
projektor
glatze
bestehend
erklimmt
kameramann
brechen
matsch
wildnis
aufblasbare
sturm
faust
kabine
##zeichnet
sommertag
fußgangerubergang
produkt
breit
breiten
servieren
spielsachen
absol
ringkampf
stabhoch
irgendeinem
jockeys
trockenen
ozeans
zahnburste
mehrfarbigen
begeistert
batman
schachteln
windhunde
##kante
##gibt
blaskapelle
brennende
supermarkt
piraten
wachmann
zuhort
zuhause
dekoriert
##formationen
altmodischen
steuert
kontroll
probiert
kompletter
faulenzen
billard
##timer
legerer
elektronischen
rosaroten
ethn
pilot
bohrmaschine
##liegenden
anweisungen
rostigen
hellrosa
verschwommen
strumpfhose
struktur
bockenden
schnappt
wollmutze
telefonzelle
smoking
wassersprenger
fontane
kaufhaus
times
##wolke
##inosau
zeremonie
meißelt
demonstranten
digit
faszin
ladeflache
volks
kommun
muskuloser
##armonika
heraushangender
oldtimer
ereig
xylophon
##perspektive
##zuheben
eingewickelt
vorsichtig
monopoly
ac
ap
ag
bh
brat
binden
beutel
cock
dschung
dinosau
ed
eigen
fan
fir
fran
gart
ganzen
gok
hasen
hacken
hackt
hisp
jud
kein
kre
kim
kase
kinn
les
ladt
mini
mowen
nadel
nummern
ochsen
pack
ping
pult
pistole
sagen
sud
sims
terr
tippt
tinten
wippe
wilden
wusten
zauber
##ac
##ail
##szug
##nach
##nummer
##taten
##ib
##iers
##imp
##out
##met
##car
##cafe
##hte
##hat
##hangt
##dig
##bun
##buh
##uer
##kn
##kur
##kre
##puppe
##pos
##pult
##loch
##frau
##ftet
##grau
##galerie
##zelt
##zhut
##wirt
##will
##inchen
einfahrt
##erie
##chor
##ano
##eist
##itischen
##itaten
inten
##els
##elll
aufeinander
aufnah
aufgenommen
aufkle
##arger
##arium
##techn
##unen
##unnel
schick
schenkt
schritt
schienen
##schwe
##school
##sto
##stocken
##stiften
##alien
##alteten
##gegend
##rager
gefahren
##orgt
##oreiter
##einfahrt
spinn
spult
stud
##ichteten
##iellen
zweite
anl
ansicht
##adet
zutaten
spielers
spielern
spielenden
##ettes
##etscher
##erste
voran
vorstellung
schwier
##allt
##pper
##eidet
hunder
##uttern
hocken
denkt
##rid
##riges
hinweg
wahrscheinlich
##dest
best
beein
beschn
beschm
sprin
auswahl
##ney
##ahm
##ahne
##ellern
umzaunten
##spur
##splatz
neun
##later
##uckten
##ikel
handtaschen
handwerker
##radern
anderem
##ustet
##bebalken
wasserstraße
hinteren
##olster
entwe
##ucher
##uchten
unterst
##book
erziel
boote
body
heran
herzen
##dernen
##gruppen
beruh
bergl
##baumen
flammen
fahrradrennen
kamm
skim
##eitungen
##abteil
nahost
schneeball
versuch
##unterricht
hochzuklettern
leop
basken
##blatt
hatte
kleidungsst
kok
##etti
##rupp
reicht
warte
stadtszene
##stens
fußballteam
##pfeln
parken
##gelegten
##ansicht
gleis
gletscher
##ettern
dunnen
##hedr
bron
##inke
blondhaariger
##hohen
gesellschaft
truth
gestap
jeansshorts
wandmaler
holzbrett
kunstgalerie
##korben
karierter
mechan
##ketten
verschm
turkisen
##autos
seichtem
kafig
hupfen
schulern
com
coach
coca
food
pferdes
basketballkorb
felsens
eisschn
eislaufen
frischen
frische
##brot
##bricht
footballfeld
pfeife
##etzter
zurecht
##gramm
badehosen
badekappe
zeitungen
pok
barkee
teilt
getragen
getreide
hauser
genau
##aterial
ziege
angefeuert
##udeln
felsklippe
lilafarbener
papa
betonstufen
##ogie
torbogen
##stration
tauziehen
krabbelt
plant
plusch
leitet
violetter
dress
wettlauf
saft
kanus
kaninchen
fischmarkt
begriff
schals
gefarb
winterjacke
wintertag
zigarre
##schlacht
##schlange
##schlitten
##lings
kostumierte
enten
waffen
waffel
vogelperspektive
ladens
angeln
angemal
mannschafts
schlafend
schlafendes
afrikaner
geldbeutel
fahrzeugs
lebensmittelmarkt
gepolster
jogger
anzusehen
barfußiger
neuen
##schwimmer
kajaks
weiblichen
##karten
traditionelle
wohnhaus
aufgeblasen
irgendwo
##dose
marathonlauf
militarangehor
##instrumente
chinesischer
zielt
backsteinstraße
cheerleadern
cheerleaderin
linke
gluckliche
farbige
videokamera
##wohl
baumstammen
labrad
innenhof
innenraum
##wartss
elektro
ruderboot
regelt
regnet
interagieren
##blaser
khakifarbener
bades
##promenade
zeichnen
dirigiert
nav
einsamen
profession
softballspieler
perucke
##gegenstand
gesaumte
braunhaariges
bucherreg
urlaub
##zeria
einkaufstaschen
kaukas
schleift
frohliche
##schutzern
##sturzten
kabel
palme
schwebebalken
kartenspiel
##seligkeiten
saubert
bananen
deutsche
nassem
hundespielzeug
musikinstrument
musikinstrumenten
leichtathlet
irgendeiner
motocrossfahrer
langes
demonstration
hochzeitskleid
seni
##uscheln
pinsel
startlinie
bleiben
bleibt
passagieren
fassade
kummern
riesen
##boxen
warnweste
pizzeria
brennenden
schlittschuhen
schlittschuh
apple
truben
absperrung
fernseh
highschool
##ottchen
marineblau
kontrolle
probieren
indianer
faulenzt
ausgebreitet
ausgebreiteten
pyj
pyram
tropischen
stofftier
hubschrauber
fitnes
sortiert
subway
##blatter
gemusterten
broschur
pony
tankstelle
einheimischer
anzeige
versteckt
pflasterstraße
mcdonalds
wassermelonen
objekte
kaffeetasse
gefleckter
stammeskleidung
zebrastreifen
reflektierenden
buckelnd
bagger
habseligkeiten
kathedr
religio
einfachen
##storte
rodeoreiter
trottet
toiletten
friedenszeichen
burgunderroten
historischen
popcor
pullovern
segelt
tempel
ufers
zitronen
##hupfen
##grube
wartungs
brautjungfern
aktentasche
hindernispar
smartphone
staffelei
schokoladen
glastur
jenga
kehren
square
schrauben
blazer
rotwei
hochhackigen
kopfsteinpflaster
mullcontainer
gesichtsausdruck
geflochtenen
digital
ereignis
dschungel
gokart
kimon
##buhne
entweder
berglandschaft
baskenmutze
wandmalerei
eisschnelll
barkeeper
11
atem
aktion
bon
bra
bug
budd
dran
dutz
eil
ero
emp
futtern
got
gast
kund
kos
kenn
kitt
keine
kief
kunde
kicken
kegeln
lot
lob
leiden
mer
meg
massen
minde
nasse
open
pri
pow
packen
punk
punkt
rall
ruft
rummel
seit
sess
sorg
sign
tiger
ul
upp
une
van
vie
wh
whe
wolk
zom
zelte
##rang
##rutscht
##respiel
##appe
##appen
##ser
##sgeschaft
##ehen
##ness
##theke
##if
##ix
##iat
##ider
##izen
##ipe
##ogra
##mon
##madchen
##meister
##ham
##hange
##haltung
##hmarkt
##huten
##hute
##di
##bol
##baby
##uell
##upf
##kr
##kie
##kumen
##krote
##por
##person
##pla
##pert
##packt
##pistole
##papier
##pipe
##lim
##fiel
##fass
##fisch
##gier
##zz
##ye
##yro
##inis
##inette
einger
einrichtung
##erk
##chtet
##chco
##anell
##eiben
##auchen
##ndet
inhalt
aufschlag
aufhat
##arat
##arden
##ungt
##untr
##ieben
schr
schatt
schippt
school
##schauf
##schuss
##schale
##stil
##stoff
##stucken
##raut
##emar
##altet
##gestellt
##raft
##ternt
gesche
gebrau
gefall
##tennis
##ckern
spag
stiel
state
stelle
stucke
anschaut
anschauen
klass
##benden
zundet
steg
spielmann
spielzeugen
spielzeuge
##etwas
##itze
##bereitung
vorles
##ami
##amp
##ierer
schwanz
schwamm
schweren
##ator
##endung
fahrenden
##geraumten
##uttet
##assage
holl
##ris
uberw
uberblickt
bed
beauf
bequ
behand
bestellt
beendet
bekann
beigen
ausschau
ausdruck
##nev
##aha
##ahnt
hemdbluse
unauf
##kler
##klein
##klasse
umhangen
umhange
##spassage
verr
veranst
verlegt
verarger
##ernes
dreikopfige
handgel
amp
ambo
##ington
##usse
##bewohner
wasserball
wasserfon
##oliz
durchgang
schaufen
schauspieler
weißhaariger
untergeht
##booten
##boote
erzahl
erreicht
bohrt
##isst
##anzt
##anzeige
herein
##oshirt
kleinere
flanell
kamin
kampfer
liebl
##opften
fußweg
fußboden
##auffuhrung
##absperr
gebaut
naher
versehen
nachden
seatt
hochst
hochhalt
hochspringt
##boarden
##schaftlich
jungeres
strandpromenade
day
##siger
##bligen
##blumen
##ettel
vorbeifahren
##uller
##agiert
tische
tischdecke
tischtennis
reise
##saft
gehe
gehullt
gehoben
fußballteams
wiegt
##ulen
##pfang
##pfutze
tanzern
gitarrespiel
##gele
betr
betrie
schwimmwesten
schwimmflugeln
##zenerie
bluten
bluhenden
bricht
##inkante
befrei
##decker
##deckten
straßenbahn
straßenmarkt
schnuller
schloss
dess
desig
sandskulptur
rothaarigen
burste
werbe
ruckwartss
baums
befindlichen
helle
hellgelben
manov
wande
holzpl
holztisch
skateboardpark
skateboardtrick
gehwegs
raufen
kunstvollen
karnev
##lex
motorradfahrern
##ford
muslim
radio
radrennfahrer
baseballkleidung
kasten
##komm
##koffer
haltend
gelbbrauner
gerichtet
gemus
musikern
schulerin
tennisschuhen
##sstudio
geschaftige
rollern
berggi
funktion
offener
##steinkante
eisbahn
poloshirt
pfannen
promenade
mikrofone
mikrofonen
obwohl
geschlagen
geschrieben
haken
blumentopf
blumenstrauß
modernen
badekleidung
landkarte
buntem
buntes
zeitungs
pose
teilnimmt
nachtclub
maulkorben
polizeibe
##ustern
metallzaun
umgek
umgesturzten
seilspringen
besuchen
pinken
pinkfarbene
wanderweg
##tresen
korbe
##essor
einkaufspassage
stoß
stopp
stobern
betonbank
balk
balgen
gebir
wegen
geradeaus
cowgirl
tauch
##schlagt
krab
platziert
fried
freut
##skuchen
autositz
bikinis
##drucken
garagen
teenagerin
saal
kampfkunst
##schneiden
mulltute
schale
liegende
hellbraune
hellbraunem
nackte
nackter
nackten
nacktes
pfluckt
training
##werkzeug
alltag
##handschuhen
kuchentresen
weihnachten
bedeckter
fußgangerbrucke
nichts
##hlt
##kopfigen
verwir
angst
angem
weinendes
##tragen
fechten
abgesperr
abgedunkelten
bikinioberteil
farbenfrohe
bemal
angelein
make
##schwarm
##schwestern
hochzeitskleidung
hochzeitstorte
milch
##ratze
fernrohr
##nahe
schmutziges
doppel
dokumen
wohnung
org
verkehrt
irgendetwas
bulle
motorboot
werkzeugen
gegenuberliegenden
tatowierter
goldfarbenen
kirchen
qual
wunderker
##farbigen
durchsucht
bulldo
##bike
fußballspielen
gluckliches
trommelt
##waffe
golfplatz
filzhut
tanzerinnen
athlet
verfolgen
krankenschwestern
wunderschon
khakihose
badmin
kek
montur
##produ
geschminkt
zahnen
spitzen
karateanzug
karateanzugen
ruhigem
meeresfr
bullenreiter
ohrhor
seitenlinie
horsaal
schwertern
schaufensterfront
##pflegten
professor
softballspiel
##fallenen
sms
vorubergehen
essenswagen
frohliches
matro
##kraft
##sturm
gewehren
##stehenden
verlassenen
kabeln
notizen
taucheranzug
bordsteinkante
##ica
gesichter
spazierstock
unterschiedlicher
##oberflache
begleiter
verkleideter
akustische
deutscher
modellflugzeug
begutachten
pitch
schiffs
entgegenges
weihnachtsmannkostum
videospiele
paket
senkre
staff
mehrfarbige
freizeitkleidung
essend
hochgehoben
bleistift
beschad
schmettert
schmetterling
krankenhausbett
aufmerksamkeit
warnwesten
schlecht
batik
krug
##brochen
klappstuhlen
lippenstift
verteilen
geschminkten
schotterweg
schotterstraße
gurteln
limon
limous
rauchend
dekorierten
sommerkleid
dekorativen
dekorationen
miami
minig
inspizieren
inspiziert
schwarzweißer
befahrene
dunkeln
schlendern
marineblauen
saiteninstrument
kompliz
sackhupfen
##timate
##wirft
trocknet
einzelne
hotdogs
fitness
##wiese
##blattern
empfang
kulisse
tiefen
tackelt
wahlt
##mobil
##wettbewerb
erwischt
bandmitglied
bandmitglieder
bahngleisen
mobelstuck
turkisfarbenen
bastelt
punkten
wenig
gesenktem
strickt
zuckerwatte
beamte
liegestuhlen
eiswaffeln
aquarium
uberdachten
schaulustige
hupfburg
latein
salat
##crew
##faltig
einzufangen
aufwarmen
aufrecht
speisekarte
textnach
hawaii
lohfarbener
fruhstuck
armellosem
kartoffel
geoffnetem
eventuell
hydranten
ipod
magaz
thema
##silien
schneemann
parasail
lebha
beteiligt
schnorchel
sooners
trenchco
konfetti
betonplatte
industrie
stabhochsprung
fasziniert
nadelstreifen
terrier
##outfit
##bunten
##position
intensiv
##schwester
studiert
leoparden
aufgeblasenen
bucherregal
senioren
pyjama
pyramide
fitnessstudio
kathedrale
popcorn
hindernisparcours
kopfsteinpflasterstraße
digitalkamera
kiefern
mindestens
rallye
seitlich
sorgfaltig
ultimate
##untry
##schaufel
spielmannszug
beaufsicht
bequem
unaufgeraumten
verargert
amboss
wasserfont
seattle
polizeibeam
abgesperrten
badminton
limousine
parasailing
trenchcoat
12
ad
acker
arab
baden
bumm
butter
bahnen
cy
can
cap
dan
don
deu
dirt
dart
dog
down
dicker
fund
fasser
fol
gan
gute
geiger
gaste
hahn
hucke
ident
kas
kass
kru
kirm
kutsche
li
lung
langer
lenkt
lehrt
letzten
lowen
ladung
mich
mach
mass
misch
mos
mast
motiv
mude
messe
material
misst
no
nasen
nippt
nike
nudeln
pend
prie
pian
ped
preis
pustet
rings
runde
rampen
rangeln
sym
tassen
tute
tellern
up
vis
wort
wangen
wink
waten
winz
wadet
yo
##rer
##ruh
##rieren
##ringen
##sein
##sich
##sanger
##ssaal
##ey
##eogra
##nam
##ning
##tin
##tack
##iqu
##ochen
##ofen
##ood
##mischer
##cap
##horts
##helmen
##hinder
##bs
##bon
##bter
##bot
##busses
##bundel
##betrie
##bude
##brechen
##uen
##uhr
##uteten
##keln
##kart
##kunden
##kater
##kisten
##kissen
##kiste
##pit
##pern
##pullover
##piste
##pierc
##lo
##lungen
##fz
##fter
##fur
##funden
##finden
##fpipe
##gelt
##gumm
##grill
##wal
##ware
##jahr
##jagt
##junge
##0er
##entr
##enker
einteil
einschl
##erzen
##anas
##anis
##eisten
##auen
##ndes
##itiert
intern
inform
informationen
##elie
##eleine
aufgebau
aufgabe
##ards
##unner
##ieft
sche
schab
schanze
schrank
schadel
##schon
##schle
##star
##sters
##strei
##stat
##stocke
##onge
##alie
##geschen
##gestell
geden
gescha
gebogen
gejagt
##ore
##orange
##ckter
spur
spir
speis
sprache
spider
sponge
zweiter
zweiten
anst
anger
anlage
anschein
ansammlung
anbie
##adem
kle
##ure
grin
griff
grins
##ese
##esur
##achlich
jung
zueinander
zuzu
zugeht
zupft
stet
stecken
steak
spielzeu
spielzug
spielende
##etch
##ersitz
vordach
vorstadt
vorwarts
vorbereiten
sitzend
sitzendes
schwein
schwanger
robo
##reich
##reiben
##reise
kleinstadt
kleinigkeit
##eugen
##gerate
##ota
blaugrun
blaugrunen
denkmal
##riot
uberwie
uberkreuz
bev
bean
beenden
bestimm
sprungt
ausru
auszeichnung
trag
##ilde
##ballen
##restaurant
##ellauf
##klich
##klapp
##klammert
umklammert
nebligen
##ackelt
##rocken
arz
verkleid
verdien
verdunkelten
vereisten
##mmer
##ucks
##ikatur
wasserlauf
wasserfahrzeug
##olker
durchge
durchsicht
ents
entsch
kindergruppe
unterteil
unterricht
##bob
erhalten
boogie
##isierten
##anzer
bauer
##umor
##umgebung
entlanggehen
rest
reagieren
##osn
##gress
##utzung
fahrradreifen
##twett
##twerk
freiheit
freiwill
##fahrzeuge
skige
skist
ballbes
##igtes
##igungs
fußtritt
##eits
##aufgaben
schneehaufen
verspr
hochklettert
sonnt
leere
lehm
dafur
##sion
##blocken
##blocke
kond
kosten
kollegen
##ullte
##agg
##agten
reisen
haarschnitt
vierkopfige
stadtplatz
##uldig
abdeck
abhang
abschluss
abstamm
##ahnliches
gegenspieler
parks
betritt
schwimmenden
schwimmerin
glatten
rosafarbenes
grauhaarige
grauhaariger
dunne
skates
brief
##eigung
##eignis
befragt
straßencafe
straßenlater
zeige
schleu
design
##fleisch
##fluteten
unterhalb
werd
werb
gestutzt
gestrupp
kurs
holzstuhl
holzboot
holzpfahl
##wache
skateboardrampe
gewe
gewicht
gewonnen
kletterwand
babyschaukel
kunstausstellung
mark
##korpern
karikatur
##mplex
##leger
meter
mehl
motorradrennen
radfahren
vollstand
großem
braunlicher
armel
armeln
tureingang
##rennt
arbeitende
seife
##komplex
gemalt
gemisch
gemutlich
collie
country
tennisspielen
##sstatue
kni
steinernen
restaurantkuche
berghang
bergsteigen
##steg
poliert
politischen
defen
deckt
kongress
pfahl
pfoten
buchern
prop
probt
obama
geschoben
jemandes
blumenwiese
love
schutzwesten
fensterputzer
##auftritt
fließen
flieger
raumt
landung
landwirt
schreiendes
head
hebe
hechtet
anzugreifen
sportplatz
baren
barten
getrock
##attra
##akes
nachtlichen
springenden
halfpipe
##mitte
##halm
metallgegenstand
schminke
##istolen
angeg
angesicht
seilschaukel
felsige
felsblock
chem
chips
zuguckt
zugucken
marktstand
rennbahn
korrid
##sha
##shand
stoßen
betonrampe
grills
gebeug
tax
toreinfahrt
plane
##mark
##gesellschaft
fruhl
front
##ski
ruinen
##hutte
kanal
orangensaft
juwel
##oma
schalter
spielplatzgerat
freundes
freundinnen
gleiche
halsketten
wintermantel
zigaretten
##schlossen
verliert
verloren
verletzt
herrlichen
##tafel
##turm
enge
bettelt
außerdem
heißt
kaput
##kappen
angriff
abente
uferweg
weinglasern
federn
##amerikaner
kerze
artikel
gartenstuhl
bewolk
partner
schlafenden
schlafender
endzone
weihnachtsgeschen
##vorstellung
laufern
gemeinde
vaters
brunnens
schusswaffe
anzuziehen
barfußiges
polizistin
afroamerikanerin
neugier
##manteln
schmutzige
traditionell
warenkorb
drag
ledermantel
elf
elternt
masken
##treten
blattwerk
irgendeine
irgendwel
buff
busche
rasieren
militars
militarische
##instrumenten
bedienung
##gruner
einzig
##schildern
backsteinwand
##eisenbahn
zerbrochen
wash
windsur
jahre
golfspieler
##fahrzeugs
außenseite
verkaufs
attack
lastwagens
lappen
regal
brunettes
krankenschwester
exp
monch
geschaftsmann
objektiv
geschmuckten
kopftuchern
zeichnung
dirigen
schweiß
schweißen
geschlossen
streicheln
gesprei
##plane
befestigen
erdbe
erdboden
##pflanzen
rollstuhlen
eishockeyspiel
blatterhaufen
disney
verzieht
kniestr
japaner
fertigen
fertigt
matratze
patriot
##masken
##kragen
sturz
halbw
verlassene
ausgestrecktem
schotten
schwester
dunkelhaariges
lehrerin
##museum
gedrangt
vornuber
unterschiedliche
##selben
plakatwand
##gemach
ubungen
zehen
##stattung
demonstr
bekleidungsgeschaft
skulpturen
hochzeitsfeier
hochzeitsgesellschaft
harten
harfe
paint
senf
klatschen
hafengebiet
euro
tutu
bewundern
##voller
diadem
riemen
##große
erhohten
kamelen
ebene
spanischer
bauernhof
flauschigen
freuen
beladenen
verteidigen
richtig
traurig
stolpert
balletttanz
konferenzt
geschnitz
wasserskifahrer
superman
geschminktem
operationssaal
heißluftballons
wissenschaftler
gespritzt
zugewandt
absperrband
interessanten
mix
steuer
schwarzweißen
reklame
##flieger
rucksacke
medizinischen
medizinische
erleuchtet
fackeln
##ießlich
vermutlich
rundes
sari
sortieren
##masten
##figuren
schaumbad
##fertigen
gesteckt
hangebrucke
kultur
ponch
##frisur
zuhoren
zuhorer
fuhrung
flaches
fliesenboden
kragenhemd
mcdonald
wassermelone
inneren
##stapel
klarinette
kastanienbraunen
knallbunten
eiswaffel
verschiedenfarbigen
rednerpult
transporter
kitesur
lichter
lichtern
##helfer
skilift
blondhaariges
kanadischen
verbundenen
domino
italien
lackiert
verbringen
lautsprecher
pferderennen
chirurg
scheinwerferlicht
maskottchen
bademantel
langarmligen
notizbuch
unglucklich
interviewt
rustik
grundschul
##rommel
erledigen
flohmarkt
geholfen
teddybar
rollerskates
wetteifern
backerei
aufgeregte
action
dinosaurier
gartner
pingu
tintenfisch
schwierigkeiten
beeindruck
##ahmte
erzielen
kokosn
truthahn
comic
plantscht
angemaltem
mannschaftskollegen
labrador
navigiert
buckelnden
eisschnelllaufer
drangen
lobby
leidenschaftlich
power
vieh
wheelie
schattigen
vorlesung
handgelenk
##olizist
schaufenstern
erzahlt
lieblings
betrunken
betrieb
dessert
ruckwartssalto
kastenwagen
funktioniert
balkonen
tauchausrustung
friedhof
garagentor
verwirrt
bulldozer
matrosen
staffellauf
minigolf
textnachricht
beaufsichtigt
deutet
huckepack
kirmes
priester
einschließlich
##schonern
spongebob
anscheinend
roboter
uberkreuzten
skigebiet
ballbesitz
abstammung
korridor
elternteil
konferenztisch
